00000000000000000000000000000000
00000000000000000000000000000000
00000000000000000000000000000000
00000000000000000000000000000000
00000000000000000000000000000000
00000000000000000000000000000000
00000000000000000000000000000000
00000000000000000000000000000000
00000000000000000000000000000000
00000000000000000000000000000000
00000000000000000000000000000000
00000000000000000000000000000000
00000000000000000000000000000000
00000000000000000000000000000000
00000000000000000000000000000000
00000000000000000000000000000000
00000000000000000000000000000000
00000000000000000000000000000000
00000000000000000000000000000000
00000000000000000000000000000000
00000000000000000000000000000000
00000000000000000000000000000000
00000000000000000000000000000000
00000000000000000000000000000000
00000000000000000000000000000000
00000000000000000000000000000000
00000000000000000000000000000000
00000000000000000000000000000000
10001110001110010010011100000000
11111111111111111111111100110000
11111111111111111111111110011101
11111111111111111111111101011011
11111111111111111111111110000111
00000000000000000000000001101111
11111111111111111111111111110110
11111111111111111111111111001010
11111111111111111111111110101101
11111111111111111111111110001011
11111111111111111111111110110010
00000000000000000000000010011011
11111111111111111111111111011001
00000000000000000000000000110110
11111111111111111111111111011100
11111111111111111111111111110101
11111111111111111111111111100110
11111111111111111111111011000110
11111111111111111111111111010010
11111111111111111111111111100000
00000000000000000000000010001011
11111111111111111111111110111000
11111111111111111111111110100111
00000000000000000000000000010000
11111111111111111111111111010001
11111111111111111111111111111101
11111111111111111111111111011110
00000000000000000000000000110101
00000000000000000000000000101010
00000000000000000000000001001001
00000000000000000000000001011110
00000000000000000000000000110100
00000000000000000000000010000001
00000000000000000000000001101100
11111111111111111111111111100100
00000000000000000000000011000111
