memory_initialization_radix=2;
memory_initialization_vector=
11000100110101111001101000000000,
11110010100011000010110100000000,
10010000110000001110110100000000,
10101010110100001110001100000000,
11110000011100100111011000000000,
11110101011100010000100100000000,
10010011010001100011111000000000,
10010000100100100101100100000000,
10000100110110011110110100000000,
10001010110101000000000000000000,
10001110100001011110101100000000,
11100010101100000001100000000000,
11011100001101101001011000000000,
10011011110110010111010100000000,
10010111001000000000110000000000,
10101111000111111000100000000000,
10001111111110010010111000000000,
10000110111110110101011000000000,
10110001010000110011101000000000,
10000111100100010011110000000000,
11101100000111110010001100000000,
10000000101011100010110100000000,
10010011100010100110101100000000,
10010010010010001001001000000000,
10101001101101001100001000000000,
10100110000110100000000000000000,
10010001001010110110001000000000,
10100011110010101010011000000000,
11110101001100110110000000000000,
10001100010000000110101100000000,
10110111111110111001110000000000,
10010101111000011001110100000000,
11111111111111111111111101001110,
11111111111111111111111000010011,
00000000000000000000000001100000,
11111111111111111111111110100100,
00000000000000000000000111001110,
00000000000000000000000001001100,
00000000000000000000000000110010,
00000000000000000000000010100010,
00000000000000000000000110011100,
00000000000000000000000010000011,
00000000000000000000000101010110,
00000000000000000000000001100011,
11111111111111111111111111001010,
00000000000000000000001001110001,
11111111111111111111111100000111,
00000000000000000000000101101011,
00000000000000000000000100011011,
00000000000000000000000010010001,
11111111111111111111111111101010,
00000000000000000000000010101111,
00000000000000000000000100101011,
11111111111111111111111111101010,
00000000000000000000000010110101,
11111111111111111111111100111101,
00000000000000000000000100010100,
00000000000000000000000101111011,
00000000000000000000000010010010,
00000000000000000000000011000110,
11111111111111111111111110101001,
00000000000000000000000001000000,
00000000000000000000000000111010,
11111111111111111111111111111011;
