memory_initialization_radix=bin;
memory_initialization_vector=
11110001000011001111111100000000,
11100000101100001110100000000000,
11000000000101001110000000000000,
10011111110101001011100100000000,
10000100011011001111101000000000,
11000101100101111111000100000000,
11001111110100101001111000000000,
10111011000111110111100100000000,
11110111101111001010101000000000,
10110000110101111000001100000000,
11001100001000111111111100000000,
10000001100110010010101000000000,
10010110000000011010010100000000,
10100011001010100101110000000000,
11111010000000100101111000000000,
11011111010010111101011000000000,
11111111111111111111111110100000,
11111111111111111111111110000001,
00000000000000000000000010011001,
11111111111111111111111101001111,
00000000000000000000000000101001,
11111111111111111111111101001110,
11111111111111111111111011000100,
00000000000000000000000001000111,
00000000000000000000000010100000,
11111111111111111111111111011101,
11111111111111111111111111100011,
00000000000000000000000001110001,
00000000000000000000000000011010,
00000000000000000000000010111000,
11111111111111111111111110110101,
00000000000000000000000000101000;
