10100111001101111110000100000000
11001101000011101110000100000000
11111101000110111101111100000000
10000110110010001010000100000000
10110000110111010101000100000000
11101100100001001100000100000000
10010001100111010010111100000000
10111011101010000100011100000000
10100001111000101111101000000000
10000111100000100100001100000000
10001011110111011011001000000000
10101100111001100100111100000000
10010000111011011110111100000000
11101000011010101001001100000000
10100100110000101101010100000000
10001101011001101001110100000000
10110000010000000011101100000000
11111001001100001001101000000000
10111111010001110000010100000000
10100010001000011010011100000000
11011010101010010001001000000000
10000010010011110010011000000000
10101010001111011000111100000000
10101011111011111011100000000000
10110010101011111111110000000000
11010000010011111010110000000000
10110000000111011000010100000000
10010100101010100101110000000000
10011000001110101100000000000000
11101010100000000110000100000000
11110011000011100110011000000000
10010001111111000100110100000000
10011111000110001000100000000000
10111001110000011000111000000000
10000110111011101001110000000000
10100100100010101000010000000000
10101100000111100111101000000000
10010001111100001100111100000000
10000011001100100111110000000000
10001000100000010110000000000000
10111000010010101010001000000000
10100000110011000011000000000000
10001011111111110111010000000000
11110111111101100011000100000000
10101101111001011100000000000000
10001000000011110100111100000000
11011010010001111000110000000000
10010000000110011010011000000000
10001110101101100100101100000000
10100011010001010001100100000000
11111001100011001010110000000000
10001111011000011111010100000000
11000011111011011110011000000000
10110101101111110111110000000000
10101011101011100000100100000000
10110010111001100011111100000000
10011101011010001100010100000000
10011001000110101111000000000000
10011100000010010000111000000000
11000001001011111100011000000000
10000011110001110000100100000000
10111001011000001110111000000000
10011010100101110100000100000000
10001001101110001111101000000000
11111111111111111111111110100001
00000000000000000000000011111001
11111111111111111111111101111100
00000000000000000000000010011101
11111111111111111111111110011011
11111111111111111111111110101011
00000000000000000000000010111110
11111111111111111111111101110001
00000000000000000000000000010111
11111111111111111111111110011100
11111111111111111111111110100001
11111111111111111111111111011011
11111111111111111111111100111100
11111111111111111111111110111000
11111111111111111111111111101000
00000000000000000000000101001101
11111111111111111111111110001110
00000000000000000000000100101000
00000000000000000000000001001001
11111111111111111111111110001111
00000000000000000000000000111011
11111111111111111111111111000101
00000000000000000000000011000111
11111111111111111111111101101001
11111111111111111111111110011011
11111111111111111111111110101010
00000000000000000000000001101011
11111111111111111111111101111010
00000000000000000000000010001011
00000000000000000000000000010101
00000000000000000000001000100011
00000000000000000000000001100100
11111111111111111111111110100010
11111111111111111111111101010111
11111111111111111111111111000110
11111111111111111111111111010100
00000000000000000000000011101101
00000000000000000000000110000100
11111111111111111111111111011101
11111111111111111111111110101110
00000000000000000000000000010110
00000000000000000000000111100000
00000000000000000000000101101010
00000000000000000000000001111000
00000000000000000000000000010110
11111111111111111111111110100100
11111111111111111111111111011000
00000000000000000000001000111000
11111111111111111111111101101001
11111111111111111111111110010001
11111111111111111111111111101100
11111111111111111111111111101100
11111111111111111111111110100101
11111111111111111111111110000100
11111111111111111111111101101110
11111111111111111111111111000000
00000000000000000000000001000011
00000000000000000000000011110010
11111111111111111111111101110101
00000000000000000000000011100011
00000000000000000000000100001111
11111111111111111111111110010111
00000000000000000000000010110010
11111111111111111111111110011111
