00000000
00000000
00000000
00000000
00000000
00000000
00000000
00000000
00000000
00000000
00000000
00000000
00000000
00000000
00000000
00000000
00000000
00000000
00000000
00000000
00000000
00000000
00000000
00000000
00000000
00000000
00000000
00000000
00000000
00000000
00000000
00000000
00000000
00000000
00000000
00000000
00000000
00000000
00000000
00000000
00000000
00000000
00000000
00000000
00000000
00000000
00000000
00000000
00000000
00000000
00000000
00000000
00000000
00000000
00000000
00000000
00000000
00000000
00000000
00000000
00000000
00000000
00000000
00000000
00000000
00000000
00000000
00000000
00000000
00000000
00000000
00000000
00000000
00000000
00000000
00000000
00000000
00000000
00000000
00000000
00000000
00000000
00000000
00000000
00000000
00000000
00000000
00000000
00000000
00000000
00000000
00000000
00000000
00000000
01000000
00010010
11101010
11000110
01010011
00000111
11111110
10100010
00000001
11111110
01110010
10101001
01111100
01111111
00001010
00011100
01011111
11110100
01111011
11010000
11111011
11100001
01011111
10111010
11111101
11010101
01000110
01101101
01011111
10001100
10100111
00011111
10000101
10111101
11111010
01100111
00111001
11000010
10110011
10100000
00011001
11100101
10100010
10110111
11011110
01000011
10101101
11011001
10110000
10001000
11001000
11011000
10000001
10001001
11010100
11101110
00011111
01010010
00011011
00101110
11100011
00000100
11010010
10110010
00001101
01001110
10100111
10111101
00001100
01001100
11011011
10001001
00000101
00110100
10101000
10011110
10000001
11011001
01100010
11001000
00011001
10101101
11100111
11111100
11101110
00010010
11110100
00001101
01000101
01001111
00100001
11010101
11111001
10000001
00000011
11011110
11111110
11001110
11011101
10110011
11110111
11000111
11010101
11010110
10111101
11110010
00011010
00101110
01110100
11111011
10000001
10010110
01011000
00000001
11000100
00100001
10011101
01110100
00100000
10110001
10011110
10110000
00001111
11110011
00011001
01110100
00001010
11101100
00111011
10111000
01011100
10101110
10001010
01001000
11110110
11011010
11001000
00101000
11101101
00001000
11001101
11000100
01110000
01001001
10000001
11000001
10000010
00010111
01011101
01010011
11111111
00110110
01010001
10110111
00001101
10101100
11010000
11011111
01011101
00110001
11000100
01100011
