00000000000000000000000000000000
00000000000000000000000000000000
00000000000000000000000000000000
00000000000000000000000000000000
00000000000000000000000000000000
00000000000000000000000000000000
00000000000000000000000000000000
00000000000000000000000000000000
00000000000000000000000000000000
00000000000000000000000000000000
00000000000000000000000000000000
00000000000000000000000000000000
00000000000000000000000000000000
00000000000000000000000000000000
00000000000000000000000000000000
00000000000000000000000000000000
00000000000000000000000000000000
00000000000000000000000000000000
00000000000000000000000000000000
00000000000000000000000000000000
11001010100011111000101100000000
10110001011101100110000100000000
11010111001000101111011100000000
10011010101101010010100100000000
10111010011100111110111000000000
10000101110100100000101100000000
11111111111111111111010011100101
00000000000000000000000000100010
00000000000000000000000001000000
00000000000000000000000000110000
00000000000000000000000001011010
11111111111111111111111110101001
